/**
  ******************************************************************************
  * @file    network_ecblobs.h
  * @brief   NN Code autogenerated DO NOT MODIFY IT
  ******************************************************************************
  * @attention
  *
  * Copyright (c) 2024 STMicroelectronics.
  * All rights reserved.
  *
  * This software is licensed under terms that can be found in the LICENSE file
  * in the root directory of this software component.
  * If no LICENSE file comes with this software, it is provided AS-IS.
  *
  ******************************************************************************
  */


#ifdef __cplusplus
extern "C" {
#endif

#include "ll_aton_caches_interface.h"

#include <string.h>

#if !defined(ECBLOB_CONST_SECTION)
#define ECBLOB_CONST_SECTION /* Empty */
#endif
#if !defined(ECBLOB_RUNTIME_SECTION)
#define ECBLOB_RUNTIME_SECTION /* Empty */
#endif

ECBLOB_CONST_SECTION
// _ec_blob_network_1 blob binary, aligned to the cache line size (equal to 64 bytes)
__attribute__((aligned(64)))
static const uint64_t _ec_blob_network_1[384] =
{
  0x00000018ecbf0050UL, 0x0000000000000000UL, 0x0000000000000048UL, 0x0000002800000001UL,
  0x0000001000000006UL, 0x0000009a0000008cUL, 0x00000207000001f9UL, 0x0000021d0000020fUL,
  0x0000003249505378UL, 0x000002e2ca057a7aUL, 0x0000005d0000003dUL, 0x3c007c0000802141UL,
  0x3c0200e300000054UL, 0x0000110010100101UL, 0x0001001010a34202UL, 0xffff0000ffff0000UL,
  0x3c0a7c0000000001UL, 0x3c0c004300000000UL, 0x0000000000ffff8aUL, 0x5c00004200802241UL,
  0x156000fc08000000UL, 0x000a00005c020123UL, 0x0000000f00000000UL, 0x0000001f0000000fUL,
  0x0000000000000000UL, 0x00000001078403f1UL, 0x000000005c0c0043UL, 0x5c0b7c0020422042UL,
  0x5d00080300000001UL, 0x00000000f8002830UL, 0x000030f2f8d0366aUL, 0x00000000f8003e61UL,
  0x0000a642f7714c14UL, 0x00001f02f7f321fdUL, 0x00004c5ff81e4198UL, 0x000098bdf8254931UL,
  0x000060e1f79b40f7UL, 0x0000ce76f8b246f8UL, 0x0000d008f80b3843UL, 0x00003a50f7de321fUL,
  0x00000000f80033b0UL, 0x00001707f81b43feUL, 0x00000000f80031a2UL, 0x00004725f835482aUL,
  0x0000167af86f3b67UL, 0x00009bb3f6e33db6UL, 0x00008014f7aa3022UL, 0x000047baf7fc4ab0UL,
  0x000036bcf7ed43faUL, 0x000081bef82b2e75UL, 0x0000759cf7544236UL, 0x00000000f8003afaUL,
  0x000023eaf7c23ad1UL, 0x000008c3f7f23737UL, 0x00000c8cf7ee4d8fUL, 0x0000796af76526e8UL,
  0x00008405f8c34c27UL, 0x00000646f8954ebeUL, 0x0000d695f7ec3453UL, 0x00000000f80032eeUL,
  0x00000000f8002d87UL, 0x6000004200802261UL, 0x1500000008000000UL, 0x0007000060027c00UL,
  0x0000400060070043UL, 0x600c004300000020UL, 0x1041104100000000UL, 0x14007c0000802001UL,
  0x140200430008c100UL, 0x00000010342e0000UL, 0x00000000140500c3UL, 0x0000000100000010UL,
  0x0000002400000000UL, 0x140c004200100000UL, 0x0000000700000006UL, 0x00000002140d0043UL,
  0x14110043342e004fUL, 0x0000000000000000UL, 0x18007c0000802021UL, 0x180200430008c184UL,
  0x0000020000000210UL, 0x00000000180500c3UL, 0x0000000000000000UL, 0x0000002400000000UL,
  0x180c004200100000UL, 0x0000000700000006UL, 0x00000001180d0043UL, 0x181100430000044fUL,
  0x0000000800000000UL, 0x34007c0000802101UL, 0x3402004300080108UL, 0x00000010342e0010UL,
  0x00000000340500c3UL, 0x0000000000000010UL, 0x0000002400000000UL, 0x340c004200100000UL,
  0x0000000700000006UL, 0x00000002340d0043UL, 0x34110043342e006fUL, 0x0000000000000000UL,
  0x00000027100a7c00UL, 0x00000001100c0043UL, 0x101e7c0000000003UL, 0x10207c0000000015UL,
  0x10007c0000000025UL, 0x3400200100000001UL, 0x000000553c007c00UL, 0x600020015c002001UL,
  0x1800200114002001UL, 0x0000006434007fe4UL, 0x10007c0000000000UL, 0x1000042400000002UL,
  0x0000000000000064UL, 0x4000000010007c00UL, 0x0000006410007bc4UL, 0x100a7c0000000000UL,
  0x100c004300000000UL, 0x0000000000000000UL, 0x00000000101e7c00UL, 0x0000000010207c00UL,
  0x0000000234007c00UL, 0x0000006434000424UL, 0x34007c0000000000UL, 0x34007bc440000000UL,
  0x0000000000000064UL, 0x3c007c0000800101UL, 0x3c00042400000002UL, 0x0000000000000064UL,
  0x400000003c007c00UL, 0x000000643c007bc4UL, 0x0080014100000000UL, 0x080000025c007c00UL,
  0x000000645c000424UL, 0x5c007c0000000000UL, 0x5c007bc448000000UL, 0x0000000000000064UL,
  0x60007c0000800241UL, 0x6000042408000002UL, 0x0000000000000064UL, 0x4800000060007c00UL,
  0x0000006460007bc4UL, 0x0080026100000000UL, 0x0000000214007c00UL, 0x0000006414000424UL,
  0x14007c0000000000UL, 0x14007bc440000000UL, 0x0000000000000064UL, 0x18007c0000800001UL,
  0x1800042400000002UL, 0x0000000000000064UL, 0x4000000018007c00UL, 0x0000006418007bc4UL,
  0x0080002100000000UL, 0x008021610000007dUL, 0x10d0003440007c00UL, 0x10200101400200e3UL,
  0x10e3420200001100UL, 0xffff000000010020UL, 0x00000001ffff0000UL, 0x00000000400a7c00UL,
  0x00000000400d7c00UL, 0x6400004200802281UL, 0x156000fc08000000UL, 0x0009800064020123UL,
  0x0000000f00000000UL, 0x0000000f0000000fUL, 0x0000000000000000UL, 0x0000000107c403f1UL,
  0x00000000640c0043UL, 0x640b7c0020422042UL, 0x6500040300000001UL, 0x000063fafbfb2611UL,
  0x0000d006fbd93f95UL, 0x0000ab3efbf7136fUL, 0x000085c3fc035c7dUL, 0x0000f4aafbd824a6UL,
  0x0000f60dfc1b4ffaUL, 0x00007a94fc393b46UL, 0x0000d89efc2b470bUL, 0x0000c756fc2866daUL,
  0x00000616fc0f1708UL, 0x0000b933fc251e22UL, 0x00001d26fc071facUL, 0x00004f01fba63e4fUL,
  0x0000f76dfbe01452UL, 0x0000ec6dfbf6228dUL, 0x00003579fc625495UL, 0x68000042008022a1UL,
  0x1500000008000000UL, 0x0007000068027c00UL, 0x0000400068070043UL, 0x680c004300000020UL,
  0x1041104100000000UL, 0x44007c0000802181UL, 0x440200e300100034UL, 0x0000110001100101UL,
  0x0001001010674101UL, 0xffff0000ffff0000UL, 0x440a7c0000000001UL, 0x440d7c0000000000UL,
  0x0080224100000000UL, 0x080000005c000042UL, 0x5c027c0015000060UL, 0x5c070043000981a0UL,
  0x0000feb900674516UL, 0x000000005c0c0043UL, 0x0080220120422042UL, 0x0174104c54007c00UL,
  0x00087f8054020043UL, 0x55000203021011cfUL, 0x0000000100000000UL, 0x0000000300000002UL,
  0x0000000500000004UL, 0x0000000700000006UL, 0x0000004900000008UL, 0x000000cc0000000bUL,
  0x0000001c000000d4UL, 0x0000001e0000001dUL, 0x2aab0000560007c3UL, 0x2db7000000001500UL,
  0x3000000000001a25UL, 0x3333000000001da0UL, 0x35550000000021cdUL, 0x3f960047000023ebUL,
  0x2e21ffb9000026b3UL, 0x333300000000224dUL, 0x3000000000002300UL, 0x5889fdde000022e0UL,
  0x2aab000000001ca6UL, 0x467aff3d00002455UL, 0x0000000000001c77UL, 0x4000000000004400UL,
  0x4000000000001300UL, 0x4000000000001200UL, 0x0000000000001100UL, 0x0000000000004900UL,
  0x0000000000004a00UL, 0x0000000000004b00UL, 0x0000000000004c00UL, 0x0000000000004d00UL,
  0x4000000000004e00UL, 0x4000000000000b00UL, 0x4000000000000a00UL, 0x0000000000000900UL,
  0x0000000000005200UL, 0x0000000000005300UL, 0x1b6e000000005400UL, 0x4861ff89000032b7UL,
  0x15550000000010afUL, 0x008020c100003c55UL, 0x088803042c007c00UL, 0x342e00102c020043UL,
  0x2c0500c30000000bUL, 0x0000000000000000UL, 0x0000002000000001UL, 0x0010000000000024UL,
  0x000000062c0c0042UL, 0x2c0d004300000007UL, 0x342e006f00000001UL, 0x000000002c110043UL,
  0x0080208100000000UL, 0x0888018424007c00UL, 0x0000000024020043UL, 0x240500c3000000abUL,
  0x0000000000000000UL, 0x0000000000000000UL, 0x0010000000000024UL, 0x00000006240c0042UL,
  0x240d004300000007UL, 0x0000024700000001UL, 0x0000000024110043UL, 0x0080212100000008UL,
  0x0008018438007c00UL, 0x0000041038020043UL, 0x380500c300000010UL, 0x0000000000000000UL,
  0x0000000000000000UL, 0x0010000000000024UL, 0x00000006380c0042UL, 0x380d004300000007UL,
  0x0000045f00000001UL, 0x0000000038110043UL, 0x0080204100000008UL, 0x0008010c1c007c00UL,
  0x342e00001c020043UL, 0x1c0500c300000001UL, 0x0000000100000000UL, 0x0000000000000000UL,
  0x0010000000000024UL, 0x000000061c0c0042UL, 0x1c0d004300000007UL, 0x342e004700000001UL,
  0x000000001c110043UL, 0x10047c0000000000UL, 0x100f004300000021UL, 0x000000090000000dUL,
  0xff2a012b10120043UL, 0x101c7c0000000013UL, 0x101e7c0000000025UL, 0x10227c0000000019UL,
  0x10247c0000000017UL, 0x10007c0000000029UL, 0x1c00200100000001UL, 0x10d0003540007c00UL,
  0x0010003544007c00UL, 0x5c00200154002001UL, 0x6800200164002001UL, 0x2c00200124002001UL,
  0x1c007fe438002001UL, 0x0000000000000064UL, 0x0000000210007c00UL, 0x0000006410000424UL,
  0x10007c0000000000UL, 0x10007bc440000000UL, 0x0000000000000064UL, 0x0000000010047c00UL,
  0x00000000100f0043UL, 0x1012004300000000UL, 0x0000000000000000UL, 0x00000000101c7c00UL,
  0x00000000101e7c00UL, 0x0000000010227c00UL, 0x0000000010247c00UL, 0x000000021c007c00UL,
  0x000000641c000424UL, 0x1c007c0000000000UL, 0x1c007bc440000000UL, 0x0000000000000064UL,
  0x40007c0000800041UL, 0x4000042400000002UL, 0x0000000000000064UL, 0x4000000040007c00UL,
  0x0000006440007bc4UL, 0x0080016100000000UL, 0x0000000244007c00UL, 0x0000006444000424UL,
  0x44007c0000000000UL, 0x44007bc440000000UL, 0x0000000000000064UL, 0x54007c0000800181UL,
  0x5400042400881082UL, 0x0000000000000064UL, 0x4088108054007c00UL, 0x0000006454007bc4UL,
  0x0080020100000000UL, 0x080000025c007c00UL, 0x000000645c000424UL, 0x5c007c0000000000UL,
  0x5c007bc448000000UL, 0x0000000000000064UL, 0x64007c0000800241UL, 0x6400042408000002UL,
  0x0000000000000064UL, 0x4800000064007c00UL, 0x0000006464007bc4UL, 0x0080028100000000UL,
  0x0800000268007c00UL, 0x0000006468000424UL, 0x68007c0000000000UL, 0x68007bc448000000UL,
  0x0000000000000064UL, 0x24007c00008002a1UL, 0x2400042400000002UL, 0x0000000000000064UL,
  0x4000000024007c00UL, 0x0000006424007bc4UL, 0x0080008100000000UL, 0x000000022c007c00UL,
  0x000000642c000424UL, 0x2c007c0000000000UL, 0x2c007bc440000000UL, 0x0000000000000064UL,
  0x38007c00008000c1UL, 0x3800042400000002UL, 0x0000000000000064UL, 0x4000000038007c00UL,
  0x0000006438007bc4UL, 0x0080012100000000UL, 0x0000000c0000009dUL
};

ECBLOB_RUNTIME_SECTION
// _ec_blob_network_1 blob, aligned to the cache line size (equal to 64 bytes)
__attribute__((aligned(64)))
static uint64_t _ec_blob_network_1_ptr[376];

#define _ec_blob_network_1_address _ec_blob_network_1_ptr

#define _ec_blob_network_1_reloc_table_ptr ((const ECFileEntry *)((const uint8_t *)_ec_blob_network_1 + 24))

#define _ec_blob_network_1_xSPI2_RELOC_IDX 0    // index of xSPI2 relocation of _ec_blob_network_1 blob
#define _ec_blob_network_1_xSPI2_BASE_SYMBOL ((unsigned char *)_mem_pool_xSPI2_network)    // base address of xSPI2 relocation of _ec_blob_network_1 blob

// this macro returns true if _ec_blob_network_1 blob is encrypted and must be decrypted on the fly, false otherwise
#define LL_ATON_EC_MustDecryptBlob_network__ec_blob_network_1 false

// this function MUST be called ONLY ONCE once for initializing the network
bool LL_ATON_EC_Network_Init_network(void)
{
  LL_ATON_Cache_NPU_Clean_Invalidate_Range((uintptr_t)_ec_blob_network_1_ptr, 3008);

  unsigned int size;
  size = 752;

  if (!ec_copy_blob((ECInstr *)_ec_blob_network_1_ptr, (const uint8_t *)_ec_blob_network_1, &size))
  {
    // TODO maybe generate/print error because it was not possible to copy the blob
    return false;
  }

  ECAddr base;
  base = 0;

  if (!ec_reloc((ECInstr *)_ec_blob_network_1_ptr, _ec_blob_network_1_reloc_table_ptr, _ec_blob_network_1_xSPI2_RELOC_IDX, (ECAddr)(uintptr_t)_ec_blob_network_1_xSPI2_BASE_SYMBOL, &base))
  {
    // TODO maybe generate/print error because it was not possible to relocate the blob
    return false;
  }

  LL_ATON_Cache_MCU_Clean_Range((uintptr_t)_ec_blob_network_1_ptr, 3008);

  return true;
}

// this function should be called before each inference
bool LL_ATON_EC_Inference_Init_network(void)
{
  return true;
}

#ifdef __cplusplus
}
#endif
