#include "ll_aton.h"

/* global pool 8 is 1056 bytes */
/* index=8 file postfix=xSPI2 name=octoFlash offset=0x71000000  relative_mode size=117440512 READ_ONLY THROUGHPUT=MID LATENCY=HIGH byte width=1 freq ratio=6 burst max length=MAXINT burst penalty=0 pipelined=ON cacheable=ON read_power=110 write_power=400 use4initializers=YES score=50  */
LL_ATON_ALIGNED(64) const uint64_t _mem_pool_xSPI2_network[132] = {

0xFE1D002BE7F1FDC6ULL,0x092F0B3FF6E1000FULL,0x090809BEF86902FEULL,0xE00AF0FAC9FF35E0ULL,0x120FE8E610ECE8F0ULL,0x1E1203170B1F02BCULL,0xF0ECF83B81C42244ULL,0xDFEBE7EAFB882ED3ULL,
0xF2D3ED02113DF302ULL,0xE1EC00FF0CBA1112ULL,0xF2030B37FB41EFDAULL,0xE00305FA0233FC07ULL,0xE9DCA0C30D901E05ULL,0x0202FB18FA9420FDULL,0x8F818106F2F30247ULL,0x2F2914CAA381813DULL,
0x17130C0FF2E61B14ULL,0xF1060DD5101326D7ULL,0x1F17FFF4081AC508ULL,0x17110B3AD616D92DULL,0xF2DC09FA0BDC2E21ULL,0xED05E81BF710EE59ULL,0xF8F5F031FDDF1511ULL,0x8184B7C1E8EC04BEULL,
0x1713160515DFD81DULL,0x222FE715F1521201ULL,0x1D17F417204A19DFULL,0xE1D79E3201D21CD3ULL,0xC2B5FA8186D61981ULL,0x03F608CBE8B0EE27ULL,0x0B03F1F5EC1AFF2FULL,0xF40FF3F00C15FEFBULL,
0xF9FAA51123D5D6EDULL,0xF6D1411B08CDFCDCULL,0x0C35C1F3ECCBBA0CULL,0x8D33BB033FDCCBC3ULL,0xFF300FDAD904D902ULL,0x09F3F80EF318F225ULL,0x857F33F633DFCA91ULL,0x081A9A867FF50905ULL,
0x01BC5BD5E67FD1F1ULL,0xFE26FFBE12D9D812ULL,0x192213001A095BF7ULL,0x07CC440B29BCDA01ULL,0xFD38B3E01CF11318ULL,0x0BEAAC0CB5561FF8ULL,0x0AB952BBB11F52EAULL,0x81021D7F54AD819AULL,
0x0FDAE01AF52ED00CULL,0x112D10DA5DA94EF4ULL,0x0EB4DE1C095CFF18ULL,0xE204073227F0FCCDULL,0xF80EB2EEDF0B4609ULL,0xF6C87FCB9F57650BULL,0x10BC2F18B6174AF4ULL,0x07EC1F93E7D825FCULL,
0xF7F3511502393610ULL,0x0808482DDE2D2B01ULL,0xFDFBD02F1E0B1406ULL,0x003587D939E5C7FBULL,0x9D0DBD8BDB0D3B81ULL,0x04F720BBB5FA32F0ULL,0xFE1D23F528C1DAFFULL,0xFB1F0AFE47D3E5FEULL,
0,0,0xF4DC47BD29101700ULL,0x7D81269EF8E2D9F5ULL,0x0B047399FF511653ULL,0x85BC815BC7433F99ULL,0x4704825A77C74D51ULL,0x2B1B81DDD31F8F94ULL,
0xEA2EDF15299C45C5ULL,0xB8FAC214D6FE7FEFULL,0x030602EF2CBA8213ULL,0x4EEF883C3A7FEEACULL,0xC300784A08FA17D7ULL,0xBD14810944C6E910ULL,0x510C2020FDFAF5E1ULL,0x895381D1BDC552EEULL,
0xC4A73528FA2D23DCULL,0x58BE7FD25E23EA04ULL,0x7F0EEFC1EE272437ULL,0xF4E3FB3618B22806ULL,0x403FE56BC7D33A1CULL,0x65BD7FCB2DFE0D19ULL,0xB123274EF68AA054ULL,0x31234133C2EE7FBFULL,
0x33F03DF0DCFCD2EFULL,0x1DC481B3DD44E0EEULL,0x0AFAC0464A7FE422ULL,0x37F0ECCE55C6375DULL,0x06EDCFFC7FFFF02BULL,0xF9A7FEC743AF06FDULL,0x33EAC21403A8FCDBULL,0xC6F3EF57F7DB7FDEULL,
0xACCD7F4C0034DCFFULL,0xBD2CE0FF8BB5A928ULL,0x95147FBFBC3F43BBULL,0x3F13F85493DB0CD6ULL,0xA21CBC7B057FDEF6ULL,0xBB0768D64838EF21ULL,0xFB0F58E4F9494E0DULL,0x81BFFDEAF932FE32ULL,
0x0110463AFEED1505ULL,0x81C58327D4067005ULL,0x6C75BB81A5E7DA24ULL,0x34F95F75FDE40005ULL,0x7FFBD5E30136D0C9ULL,0xB223C4CDC8D26565ULL,0x90C390D9FF7F1716ULL,0xABA2BA4EEEE615C0ULL,
0x2A26A3EDFC24EEF2ULL,0xF9ED45B67F1F493DULL,0xE80019E20A943BACULL,0x176BCE3581184EBDULL,0x1228DFAF7F1EEA69ULL,0x11F9E1A3020F2806ULL,0x1D1B7DB7CD28FDC3ULL,0x08002ABB8139C203ULL,
0x1554C41F29D403E8ULL,0xE8FB67DB7FF2F0EEULL,0x5C0F022C010F0EEAULL,0x83CE8144F4C24710ULL,0x000DD3C41DB5BFB2ULL,0xE82884D5678A467FULL,0x141A8118C59D5FDBULL,0x358ECED0C0D2F245ULL,
0xAFCDD004D2DF3F36ULL,0x815F4BD3A6D651B5ULL,0xABAACE0C4C0BF1EAULL,0x51F8E77FF20E1958ULL,
};
